<endoftext>
!
#
$
%
&
(
)
+
,
-
.
/
0
1
2
3
4
5
6
7
8
9
:
;
=
?
A
B
C
D
E
F
G
H
I
J
K
L
M
N
O
P
Q
R
S
T
U
V
W
X
Y
Z
\
a
b
c
d
e
f
g
h
i
j
k
l
m
n
o
p
q
r
s
t
u
v
w
x
y
z
~
¡
¢
£
¤
¥
¦
¨
©
«
¬
®
¯
°
±
³
´
µ
¶
º
»
¼
½
¿
Â
Ã
É
Ê
Ë
Î
Ï
â
ï
Ċ
Ġ
Ģ
ģ
Ĥ
Ħ
Ĩ
Ī
Ĭ
Ĳ
Ĵ
ĵ
Ķ
ĸ
Ĺ
ĺ
Ļ
ļ
ľ
Ŀ
ŀ
Ł
ł
Ń
er
en
in
Ġa
Ġt
Ġd
Ġ,
es
##
ch
on
Ġ.
Ġth
Ġs
nd
at
or
is
it
Ġw
Ġthe
re
Ġb
ie
AT
Ġf
Ġin
ll
Ġu
Ġo
an
Ġm
ĠS
te
Ġc
ar
Ġe
ro
as
ge
ion
Ġh
Ġp
le
ich
al
un
ed
Ġof
ing
Ġv
om
ur
Ġand
Ġn
ent
ĠA
st
ic
Ġ##
##-
##-##
Ã¼
Ġto
Ġund
ig
ĠP
ot
ou
Ġis
Ġbe
ung
ĠM
im
ĠL
ter
ĠW
ĠI
Ġder
Ġein
Ġdie
Ã¤
ĠC
il
Ġl
ation
Ġg
ĠB
et
el
Ġ&
ers
ĠE
ĠD
em
Ġz
ir
ĠG
us
Ġy
ow
am
os
ten
00
ĠH
ut
ind
ĠF
ĠT
Ġk
ĠR
ad
Ġfor
he
uf
Ġ1
hr
ĠN
ate
ess
Ġ2
Ġre
qu
ies
Ã¶
all
ab
ra
Ġan
ĠU
den
iv
ol
ere
for
ce
ier
and
ĠV
ay
ith
Ġse
Ġzu
der
ĠK
ct
est
Ġvon
Ġâ
de
ach
Ġden
Ã¼r
eit
Ġ(
ist
Ġr
Ġ)
ĠâĢ
oll
um
Ġdas
uch
Ġon
Ġyou
ber
lich
Ġge
Ġthat
Ġwh
Ġpro
ft
th
Ġi
Ġare
ver
Ġun
Ġer
quot
ĠO
ste
Ġwith
Ġist
omm
pd
Ġ;
ĠfÃ¼r
Ġauf
ul
ĠAn
od
Ġ:
ib
ls
Ġmit
end
ÃŁ
Ġor
our
Ġ200
Ġde
Ġcon
ĠIn
up
icht
Ġim
sch
ĠSt
ben
Ġas
ĠZ
gen
ĠSie
ck
Ġall
omp
form
Ġver
Ġdes
Ġst
ment
ap
op
id
av
ill
ff
ows
hn
ly
ien
Ġwer
Ġit
iz
Ġme
Ġsh
rom
art
ann
Ġus
und
ine
Ġne
kt
ĠJ
pdate
ort
indows
Ġdem
ant
Ġwir
igh
ity
Ġdies
ord
Ġes
isch
Ġby
Ġwerden
Ġals
ĠWindows
ust
gel
oft
we
ne
Ġch
ak
Ġj
ote
The
Ġfrom
stem
Ġcan
ystem
Ġthis
Ġ&#
ain
ĠPro
Ġnot
formation
mer
ld
ug
Ġsich
Ġyour
ast
Ġsp
if
Ġle
Ġwe
la
ungen
..
to
igen
Ġsie
erv
Ġeine
ave
nen
Ġex
se
Ġnicht
12
Ġhe
gr
are
Ġro
ure
ice
hl
lo
ard
hen
ive
Ġaus
age
ark
ise
Ã¼ber
ĠUpdate
ĠNI
ost
Ġsind
ag
ern
Ġ...
Ġoder
Ġent
ress
Th
apos
ik
ph
ss
Ġda
ated
Ġ/
Ġ2000
ish
Ġtr
Ġhave
ĠSp
wo
Ġman
Ġwird
ted
Ġcomp
Ġso
124
Ã¶n
ud
enn
ight
ue
ĠVer
ĠÃ¼ber
ates
ass
Ġwas
ze
Ġat
Ġac
ĠRe
ans
ite
ĠAngel
ĠSch
Ġwhich
pl
urch
Ġvers
Die
ble
aus
ĠRoll
esch
Ġen
Ġ6
ĠAngeles
Ġte
ome
Ġup
men
tern
Ġum
ĠGe
Ġ?
ĠRollup
ions
Ġthey
otel
ign
ick
ĠkÃ¶n
ac
Ġwor
Ġpr
port
Ġlo
ĠLos
Ġich
iert
Ġwill
Ġap
ub
pt
tet
Ġinc
own
Ġhat
ros
Ġper
Ġcont
ile
Ġwie
ire
ware
per
Ġ!
oms
ĠThe
immer
Ġ3
ĠÂ
stall
ĠSP
Ġhab
Ġauch
Ġab
Ġye
ĠkÃ¶nnen
ungs
Ġ-
hre
Ġam
fore
ese
ige
Ġshall
glich
ore
able
Ġsystem
ings
amp
ok
VI
icros
icrosoft
ĠBe
Ġunter
och
ĠEr
ition
ĠAnd
ommer
Ġke
ieren
ould
her
This
ous
ts
Ġsein
Ġco
ia
ase
ĠLe
fÃ¼
ial
oftware
ations
aten
Ġbei
Ġoff
ĠCh
iel
Ġvor
Ġihr
ĠEn
ip
Ġ19
Ġinformation
ime
Press
Ġnach
du
gt
hal
Ġzur
Ġalso
Ġacc
ose
ree
ischen
Ġ4
Das
Ġar
Ġsch
pen
ther
istr
Ġwar
Ġeinen
Ġtheir
og
ink
ond
etz
Ġpl
Ġunto
ect
ack
CE
ang
Ġincl
ĠWe
cat
In
ec
gram
blem
Ġinstall
ĠLab
eiten
geben
ual
ert
Ã¤t
hren
ents
geb
ĠHotel
ĠInformation
tell
wend
utz
CEcat
ĠMicrosoft
cht
ahl
ĠdaÃŁ
ction
ute
erson
ance
Ġsoll
Ġone
be
ĠICEcat
Ġdurch
ake
ail
ĠNe
out
Ġcomm
ven
Ġgen
Ġeinem
Ġdo
ame
ĠâĢĵ
ï¿
ï¿½
ild
ide
Ġres
ĠPl
Ro
lle
Ġï¿½
Ġeiner
Ġal
Ġcre
ĠâĢľ
Ġserv
ens
artment
VIE
VIEW
ren
Ġhas
ult
Ġind
che
ĠLabVIEW
erien
wohn
ally
Ġdat
Ġmay
ĠUnd
pdates
Ġ5
Dies
str
ĠUn
ites
Ġwere
Ġwur
Ġif
ĠTh
Ġthem
ĠHer
Ġad
iss
Ġkann
Ġbas
ĠâĢĻ
ĠTe
tra
vel
pr
ĠAr
ht
Ġmy
erk
Ġfe
ale
unt
uter
Ġhaben
adt
Ġet
ational
heit
ary
eren
Ġinclud
load
scha
Ġdar
Ġtime
Ġwork
ict
ater
ĠDe
lie
Ã¶glich
ionen
Ġother
ons
Ġnew
Ġpart
ities
ors
Ġbo
Ġ7
Ġuns
Ġbut
ade
ger
orm
lt
Ġmore
pe
old
Ġhis
Ġuse
Ġdata
Ġroom
ĠGod
Ġthere
ott
Ġgo
ix
elt
keit
lish
fa
Ġcl
ĠMen
ĠVers
ommen
Ġdieses
Ġla
one
rie
Ġbed
Ġsec
chen
Ġpre
Ġpe
Ġinter
hop
Ġgro
ommerce
istrib
Ġher
ĠGr
Ġdiese
hmen
ibt
pro
Ġour
Ġloc
ĠComp
ĠDaten
unden
Ġout
Ġover
Ġdown
ve
dern
ĠEin
Ġwenn
icher
Ġmein
Ġetc
Ġtrans
Ġwho
iff
ures
ĠâĢĶ
ory
Ġcity
ath
XI
Ġdass
Ġjed
sten
ĠZimmer
ek
fe
me
ont
tehen
ĠJa
Ġkn
ong
ical
Ġno
mp
ĠPre
ĠSystem
llen
ays
ĠEx
ople
uite
Ġfind
acht
ĠIhr
ffen
Ã¤nd
auf
Ġany
Ġeven
Ġpeople
ars
dit
Ã¤r
Ã¤n
unkt
act
ĠQ
Ġ8
istribut
schen
erefore
Ġdu
ĠStadt
ĠGott
eth
Ġrec
ry
ordPress
alt
Ġnur
Ġvom
ĠHerr
irst
ible
ĠBr
ication
Ġrequ
Ġbec
ĠAS
ĠSe
Ġbet
Ġunder
halten
Ġdenn
Ġfr
Ġits
ull
Ġmany
uro
chn
Ġbes
Ġrest
Ġsoftware
ank
amil
iet
reat
Ġinto
ital
rand
outh
itt
gramm
ĠAus
wick
ĠÃ
Ġzum
hnen
erienwohn
ĠBuch
You
Ġused
Ġqu
Ġvie
Ġbefore
ower
Ġthese
Ġusing
gan
Ġben
olk
Der
ische
ĠPXI
ĠLand
ĠProblem
ĠEng
fter
Ġneed
Ġever
bs
ues
wn
ied
adiz
Ġupon
Ġ18
assen
Ġange
tz
ĠDate
bar
oc
ring
Ġfree
ĠOpen
Ġland
ĠWordPress
orn
Ġprov
iles
Ġmo
Ġec
Ġph
Ġdam
unter
ium
uer
Ġwel
leich
ierung
Ġsow
Ġihre
reib
ĠZeit
utom
aur
ork
atist
Ġbis
ins
tt
Ġrooms
erver
ustom
ĠLord
dem
imul
lichen
Ġnoch
oren
Ġweit
Ġgibt
Ġshould
Ġform
ient
Ġprodu
ause
Ġbeen
att
Rooms
itte
Ġlie
weise
roug
ys
ious
les
inn
ian
Ġappl
Ġsup
Ġ68
Ġcall
its
io
Ġabout
aden
ĠWh
Ġhad
NA
wÃ¤
ĠLate
ĠLateRooms
cess
Ġhigh
ices
ĠEnglish
bo
ments
ĠPC
Ġfile
ru
Ġsuch
ĠMed
pre
Ġsites
Ġdownload
ize
partment
ĠSoftware
ĠâĢĿ
strum
ke
imm
uÃŁ
Ġges
Ã¼ck
ĠwÃ¤
Ġwurde
Ġsome
Ġmost
Ġopt
Ġsa
ĠEuro
ĠFr
aurant
ĠLond
ĠLondon
bl
ux
zu
ĠGeb
ces
Ġonly
ĠGer
ange
ĠAl
uark
andard
oss
ĠPS
Ġfirst
Ġthings
ilities
19
press
Ġperson
tre
ĠHe
asure
ohn
Ġverstehen
Ġalle
Ġbie
Ã¼ss
Ġdamit
iver
dition
ivers
Ġfac
ĠÂ®
ĠMin
ho
Ġcustom
Ġthou
ĠOr
ĠAb
enz
enden
stell
Ġzw
Ã¶t
Ġmehr
ĠSicher
Ġtra
Ġmin
ines
Ġwhen
Ġget
Ġav
par
els
91
Ġbased
Ġecommerce
ĠCo
St
ĠEl
ĠUS
ĠMe
fl
mÃ¤
ĠPerson
schaft
hm
ĠPark
igt
Ã¼n
Ġaber
Ġeuch
Ġreg
Ġtwo
Ġset
int
ouse
Ġcent
hops
ĠASP
ĠASPs
Ġsystems
ince
arb
Ġcom
ound
ĠCadiz
ĠBed
ĠMar
iven
ob
hrist
ĠNeph
hÃ¤
hrt
ĠMenschen
ages
Ġhow
Ġbus
Ġeas
10
Ġavail
If
Ġcontro
Ġsm
93
Ġend
Update
stand
Ġhim
ĠServ
hold
Sie
ĠâĢŀ
ichen
Diese
find
Ġste
rough
Ġ2009
ivid
igital
pos
Ġdec
Ġknow
way
ĠPr
ĠVersion
nis
ĠNot
Ã¶ff
Ã¼nd
Ġmust
ics
Ġword
Ġafter
Ġevery
Ġdr
HP
Ġcomputer
uen
ĠUpdates
ĠInstrum
Ġmod
ĠNotes
ĠverfÃ¼
igkeit
teil
ife
ges
Ġspe
Ġdis
Ġdire
Ġcontain
Ġhel
ĠFl
Ġbest
Ġavailable
ĠBo
urn
ĠMess
ada
ĠCal
fer
ney
wei
ĠNational
Ġupdate
fix
fach
Ġers
Ġsowie
anz
nehmen
Ġseit
Ġhabe
Ġthrough
Ġhand
Ġbre
arge
Ġthan
uarkX
uarkXPress
ĠAd
ating
Ġspec
ely
Ġwould
Ġrequire
ov
Ġfa
ĠSpain
oy
Ġhotel
ĠDie
omple
Ġproblem
Ġlic
gest
IO
Ġfacilities
Ġsollen
Ġeines
Wenn
entlich
Ġdann
ĠWerk
Ġimmer
anc
utomat
Ġupdates
oth
Ġworld
als
iness
atures
Ġrem
Ġapartment
Ġide
ude
Ġservice
uss
Ġson
ĠInstruments
Ġsel
otfix
Ġ00
etzt
Ġteil
reibung
ee
Ġbeg
Ġdesign
Ġdiff
tal
otos
ications
Ġdistribut
32
Ġ2005
Ġplay
Ġfre
chie
ĠLuf
ĠChrist
ĠIhrer
Ġbietet
ĠUm
ĠgroÃŁ
ĠGottes
ĠIntern
ful
Ġconf
xt
Ġgr
ĠVis
ĠCl
ember
Ġbecause
Ġwell
Ġmen
Ġindivid
olid
led
sel
ness
ansa
LNA
ĠInformationen
ĠAnwend
ĠIhre
Ġkeine
iger
besch
It
yp
Ġcommun
Ġob
por
ĠX
ility
Ġ100
Ġear
inal
less
mÃ¤ÃŁ
Ġ12
Room
liche
Ġwurden
Ġwelche
osten
ierte
izenz
Zimmer
Zimmerbesch
Zimmerbeschreibung
Ġsc
Ġrece
aut
Ġ11
Ġfull
Ġproduct
ject
Ġpower
itz
Ġlocated
Ġoffers
bers
otels
Ġcalled
ording
Ġzwei
alle
ĠDLNA
ĠNephi
Ġrate
Ġroll
essen
fen
ĠFunkt
mÃ¶glich
ĠZe
ssystem
Ã¶r
Ġag
Ġcome
Ġvery
wer
Ġsim
Ġgreat
ĠLast
Ġnum
Ġrent
velop
line
ĠCent
ĠPHP
cc
Ġdev
alog
Ġ21
ĠFre
ĠMod
Ġrollup
arte
Ġeinfach
hne
Ġhin
Ġunser
zeit
Ġdieser
atz
Ġbefind
zahl
annt
abe
ĠBuchung
Ġja
Ġdoes
Ġtool
Ġmight
round
ĠFor
lease
ird
ner
ĠForm
oliday
ĠMinute
ep
Ġday
Ġ15
Ġconne
ited
ĠPlay
Ġ10
ĠRest
ĠDar
isen
thansa
sche
Ġpack
alls
net
issen
ammen
isp
Ġdenen
Ã¶s
Ġherunter
ĠFerienwohn
Ġhier
lung
ĠGeist
ĠVolk
000
Ġbu
Ġstandard
Ġmade
ever
ival
Ġsince
Ġdel
Ġyears
ount
Ġbedro
Be
Star
Ġ20
ense
ĠIs
